{
  "vocab": {
    "<PAD>": 0,
    "<UNK>": 1,
    "<CLS>": 2,
    "<SEP>": 3,
    ".": 4,
    "0": 5,
    "1": 6,
    "3": 7,
    "4": 8,
    "5": 9,
    "</w>": 10,
    "?": 11,
    "a": 12,
    "b": 13,
    "c": 14,
    "d": 15,
    "e": 16,
    "f": 17,
    "g": 18,
    "h": 19,
    "i": 20,
    "j": 21,
    "k": 22,
    "l": 23,
    "m": 24,
    "n": 25,
    "o": 26,
    "p": 27,
    "q": 28,
    "r": 29,
    "s": 30,
    "t": 31,
    "u": 32,
    "v": 33,
    "w": 34,
    "x": 35,
    "y": 36,
    "z": 37,
    "e</w>": 38,
    "t</w>": 39,
    "s</w>": 40,
    "n</w>": 41,
    "r</w>": 42,
    "th": 43,
    "re": 44,
    "in": 45,
    "er</w>": 46,
    "y</w>": 47,
    "ou": 48,
    "d</w>": 49,
    "ar": 50,
    "at</w>": 51,
    "me</w>": 52,
    "to": 53,
    "do": 54,
    "the</w>": 55,
    "pe": 56,
    "ch": 57,
    "p</w>": 58,
    "l</w>": 59,
    "you": 60,
    "es</w>": 61,
    "il": 62,
    "fo": 63,
    "pen</w>": 64,
    "you</w>": 65,
    "wh": 66,
    "open</w>": 67,
    "lo": 68,
    "fil": 69,
    "what</w>": 70,
    "g</w>": 71,
    "ow": 72,
    "is</w>": 73,
    "sh": 74,
    "en": 75,
    "di": 76,
    "der</w>": 77,
    "tu": 78,
    "ch</w>": 79,
    "ing</w>": 80,
    "te": 81,
    "co": 82,
    "la": 83,
    "my</w>": 84,
    "a</w>": 85,
    "k</w>": 86,
    "al": 87,
    "te</w>": 88,
    "ro": 89,
    "ve</w>": 90,
    "ma": 91,
    "files</w>": 92,
    "to</w>": 93,
    "ow</w>": 94,
    "de": 95,
    "up</w>": 96,
    "in</w>": 97,
    "that</w>": 98,
    "mo": 99,
    "for</w>": 100,
    "are</w>": 101,
    "un": 102,
    "rea": 103,
    "um": 104,
    "ut": 105,
    "ent": 106,
    "st": 107,
    "de</w>": 108,
    "er": 109,
    "fol": 110,
    "folder</w>": 111,
    "ke</w>": 112,
    "me": 113,
    "ri": 114,
    "se": 115,
    "ol": 116,
    "na": 117,
    "i</w>": 118,
    "sa": 119,
    "do</w>": 120,
    "an": 121,
    "f</w>": 122,
    "se</w>": 123,
    "dow": 124,
    "all</w>": 125,
    "doc": 126,
    "on</w>": 127,
    "fin": 128,
    "ex": 129,
    "it</w>": 130,
    "min": 131,
    "des": 132,
    "desk": 133,
    "deskto": 134,
    "desktop</w>": 135,
    "oo": 136,
    "vol": 137,
    "volu": 138,
    "volume</w>": 139,
    "tur": 140,
    "m</w>": 141,
    "art</w>": 142,
    "ca": 143,
    "ed</w>": 144,
    "chro": 145,
    "chrome</w>": 146,
    "file</w>": 147,
    "pd": 148,
    "find</w>": 149,
    "laun": 150,
    "launch</w>": 151,
    "is": 152,
    "down</w>": 153,
    "docum": 154,
    "or": 155,
    "sear": 156,
    "search</w>": 157,
    "start</w>": 158,
    "o</w>": 159,
    "no": 160,
    "loo": 161,
    "look</w>": 162,
    "ac": 163,
    "show</w>": 164,
    "sc": 165,
    "scre": 166,
    "ll</w>": 167,
    "thing</w>": 168,
    "c</w>": 169,
    "ee": 170,
    "al</w>": 171,
    "rider</w>": 172,
    "code</w>": 173,
    "pdf": 174,
    "pdfs</w>": 175,
    "document": 176,
    "bac": 177,
    "back": 178,
    "backup</w>": 179,
    "make</w>": 180,
    "crea": 181,
    "ec": 182,
    "rec": 183,
    "tor": 184,
    "move</w>": 185,
    "goo": 186,
    "turn</w>": 187,
    "of": 188,
    "minut": 189,
    "minutes</w>": 190,
    "name</w>": 191,
    "mu": 192,
    "vis": 193,
    "visu": 194,
    "visual</w>": 195,
    "stu": 196,
    "studi": 197,
    "studio</w>": 198,
    "ut</w>": 199,
    "documents</w>": 200,
    "pro": 201,
    "ne": 202,
    "ive</w>": 203,
    "el</w>": 204,
    "mp": 205,
    "ter</w>": 206,
    "ta": 207,
    "ti": 208,
    "ce</w>": 209,
    "br": 210,
    "b</w>": 211,
    "reme": 212,
    "remem": 213,
    "rememb": 214,
    "remember</w>": 215,
    "sum": 216,
    "summ": 217,
    "summar": 218,
    "how</w>": 219,
    "your</w>": 220,
    "li": 221,
    "sent": 222,
    "did</w>": 223,
    "us": 224,
    "exp": 225,
    "qu": 226,
    "out": 227,
    "vs": 228,
    "vscode</w>": 229,
    "py</w>": 230,
    "rep": 231,
    "repor": 232,
    "ev": 233,
    "create</w>": 234,
    "proj": 235,
    "projec": 236,
    "ts</w>": 237,
    "new": 238,
    "arch": 239,
    "read": 240,
    "log</w>": 241,
    "he": 242,
    "off</w>": 243,
    "tor</w>": 244,
    "pre": 245,
    "pref": 246,
    "comp": 247,
    "comput": 248,
    "computer</w>": 249,
    "than": 250,
    "ent</w>": 251,
    "of</w>": 252,
    "can</w>": 253,
    "ha": 254,
    "clo": 255,
    "close</w>": 256,
    "outlook</w>": 257,
    "note": 258,
    "pa": 259,
    "copy</w>": 260,
    "ima": 261,
    "imag": 262,
    "images</w>": 263,
    "ever": 264,
    "ything</w>": 265,
    "cal": 266,
    "new</w>": 267,
    "direc": 268,
    "director": 269,
    "directory</w>": 270,
    "wor": 271,
    "archive</w>": 272,
    "ra": 273,
    "fi": 274,
    "this</w>": 275,
    "xt</w>": 276,
    "sp": 277,
    "take</w>": 278,
    "ne</w>": 279,
    "now</w>": 280,
    "sentin": 281,
    "sentinel</w>": 282,
    "good</w>": 283,
    "ning</w>": 284,
    "ab": 285,
    "mute</w>": 286,
    "edi": 287,
    "editor</w>": 288,
    "ide</w>": 289,
    "pow": 290,
    "boo": 291,
    "save</w>": 292,
    "pc</w>": 293,
    "0</w>": 294,
    "screen": 295,
    "screensh": 296,
    "screensho": 297,
    "screenshot</w>": 298,
    "ture</w>": 299,
    "scree": 300,
    "screen</w>": 301,
    "summari": 302,
    "summariz": 303,
    "summarize</w>": 304,
    "usa": 305,
    "usag": 306,
    "usage</w>": 307,
    "thank": 308,
    "thanks</w>": 309,
    "h</w>": 310,
    "doing</w>": 311,
    "tell</w>": 312,
    "say</w>": 313,
    "lou": 314,
    "red</w>": 315,
    "hap": 316,
    "pen": 317,
    "quit</w>": 318,
    "notepa": 319,
    "notepad</w>": 320,
    "shut</w>": 321,
    "explo": 322,
    "explore": 323,
    "explorer</w>": 324,
    "report</w>": 325,
    "everything</w>": 326,
    "call": 327,
    "called</w>": 328,
    "tem": 329,
    "temp</w>": 330,
    "da": 331,
    "put</w>": 332,
    "le": 333,
    "gs</w>": 334,
    "pdf</w>": 335,
    "docx": 336,
    "docx</w>": 337,
    "fro": 338,
    "from</w>": 339,
    "exc": 340,
    "py": 341,
    "later</w>": 342,
    "am</w>": 343,
    "hel": 344,
    "mor": 345,
    "man": 346,
    "ds</w>": 347,
    "atu": 348,
    "res</w>": 349,
    "lis": 350,
    "list</w>": 351,
    "ren": 352,
    "ic": 353,
    "project</w>": 354,
    "gl": 355,
    "gle</w>": 356,
    "gi": 357,
    "gith": 358,
    "githu": 359,
    "github</w>": 360,
    "sk</w>": 361,
    "brow": 362,
    "brows": 363,
    "browser</w>": 364,
    "boot</w>": 365,
    "mode</w>": 366,
    "eep</w>": 367,
    "ell</w>": 368,
    "rename</w>": 369,
    "restart</w>": 370,
    "5</w>": 371,
    "remin": 372,
    "cap": 373,
    "capture</w>": 374,
    "shut": 375,
    "shutdown</w>": 376,
    "per": 377,
    "bla": 378,
    "blah</w>": 379,
    "?</w>": 380,
    "an</w>": 381,
    "jo": 382,
    "so": 383,
    "some": 384,
    "something</w>": 385,
    "fa": 386,
    "fav": 387,
    "favou": 388,
    "favouri": 389,
    "favourite</w>": 390,
    "ge": 391,
    "get</w>": 392,
    "jus": 393,
    "just</w>": 394,
    "expla": 395,
    "explain</w>": 396,
    "does</w>": 397,
    "and</w>": 398,
    "happen": 399,
    "happened</w>": 400,
    "ter": 401,
    "ate</w>": 402,
    "exit</w>": 403,
    "du": 404,
    "cate</w>": 405,
    "into</w>": 406,
    "projects</w>": 407,
    "name": 408,
    "named</w>": 409,
    "ta</w>": 410,
    "as": 411,
    "ere</w>": 412,
    "dele": 413,
    "delete</w>": 414,
    "old</w>": 415,
    "logs</w>": 416,
    "ase</w>": 417,
    "modi": 418,
    "modifi": 419,
    "modified</w>": 420,
    "toda": 421,
    "today</w>": 422,
    "word</w>": 423,
    "text</w>": 424,
    "excel</w>": 425,
    "spread": 426,
    "spreadsh": 427,
    "spreadshee": 428,
    "pyth": 429,
    "python</w>": 430,
    "ly</w>": 431,
    "by": 432,
    "bye</w>": 433,
    "done</w>": 434,
    "one</w>": 435,
    "hello": 436,
    "hello</w>": 437,
    "hi</w>": 438,
    "hey</w>": 439,
    "morning</w>": 440,
    "gre": 441,
    "et": 442,
    "use</w>": 443,
    "down": 444,
    "downlo": 445,
    "downloa": 446,
    "downloads</w>": 447,
    "cu": 448,
    "con": 449,
    "pic": 450,
    "pictu": 451,
    "pictures</w>": 452,
    "tr": 453,
    "tran": 454,
    "trans": 455,
    "the": 456,
    "sou": 457,
    "google</w>": 458,
    "task</w>": 459,
    "mana": 460,
    "manag": 461,
    "manager</w>": 462,
    "int</w>": 463,
    "spo": 464,
    "spoti": 465,
    "spotif": 466,
    "spotify</w>": 467,
    "tea": 468,
    "team": 469,
    "teams</w>": 470,
    "sof": 471,
    "power": 472,
    "pu": 473,
    "readme</w>": 474,
    "report": 475,
    "report.": 476,
    "as</w>": 477,
    "abou": 478,
    "about</w>": 479,
    "prefe": 480,
    "preferen": 481,
    "prefer": 482,
    "preferred</w>": 483,
    "dri": 484,
    "drive</w>": 485,
    "stor": 486,
    "store</w>": 487,
    "note</w>": 488,
    "gh": 489,
    "shell</w>": 490,
    "reboot</w>": 491,
    "remind</w>": 492,
    "10</w>": 493,
    "set</w>": 494,
    "30</w>": 495,
    "1</w>": 496,
    "mer</w>": 497,
    "power</w>": 498,
    "sl": 499,
    "sleep</w>": 500,
    "statu": 501,
    "status</w>": 502,
    "run": 503,
    "running</w>": 504,
    "give</w>": 505,
    "summary</w>": 506,
    "txt</w>": 507,
    "document</w>": 508,
    "sy": 509,
    "sys": 510,
    "syste": 511,
    "system</w>": 512,
    "for": 513,
    "perf": 514,
    "perfec": 515,
    "perfect</w>": 516,
    "crease</w>": 517,
    "qui": 518,
    "quie": 519,
    "quieter</w>": 520,
    "louder</w>": 521,
    "st</w>": 522,
    "who</w>": 523,
    "ai</w>": 524,
    "joke</w>": 525,
    "fun": 526,
    "funn": 527,
    "funny</w>": 528,
    "thin": 529,
    "think</w>": 530,
    "like</w>": 531,
    "mus": 532,
    "musi": 533,
    "music</w>": 534,
    "senti": 535,
    "sentient</w>": 536,
    "tal": 537,
    "talk</w>": 538,
    "mean": 539,
    "meaning</w>": 540,
    "lif": 541,
    "life</w>": 542,
    "drea": 543,
    "dream</w>": 544,
    "sm": 545,
    "smart</w>": 546,
    "fee": 547,
    "feel</w>": 548,
    "inte": 549,
    "intere": 550,
    "interest": 551,
    "interesting</w>": 552,
    "colou": 553,
    "colour</w>": 554,
    "bo": 555,
    "bored</w>": 556,
    "mean</w>": 557,
    "repe": 558,
    "repeat</w>": 559,
    "not</w>": 560,
    "unde": 561,
    "under": 562,
    "underst": 563,
    "understand</w>": 564,
    "ag": 565,
    "aga": 566,
    "again</w>": 567,
    "why</w>": 568,
    "kil": 569,
    "kill</w>": 570,
    "termin": 571,
    "terminate</w>": 572,
    "dup": 573,
    "dupli": 574,
    "duplicate</w>": 575,
    "work</w>": 576,
    "demo": 577,
    "demo</w>": 578,
    "mk": 579,
    "mkdi": 580,
    "mkdir</w>": 581,
    "data</w>": 582,
    "output</w>": 583,
    "asse": 584,
    "assets</w>": 585,
    "here</w>": 586,
    "remove</w>": 587,
    "tra": 588,
    "trash": 589,
    "trash</w>": 590,
    "erase</w>": 591,
    "every</w>": 592,
    "wee": 593,
    "week</w>": 594,
    "pn": 595,
    "png</w>": 596,
    "spreadsheets</w>": 597,
    "mp4": 598,
    "mp4</w>": 599,
    "vi": 600,
    "vide": 601,
    "video": 602,
    "videos</w>": 603,
    "zi": 604,
    "zip</w>": 605,
    "recent": 606,
    "recently</w>": 607,
    "good": 608,
    "goodbye</w>": 609,
    "see</w>": 610,
    "care</w>": 611,
    "have</w>": 612,
    "peac": 613,
    "peace</w>": 614,
    "fini": 615,
    "finish": 616,
    "finished</w>": 617,
    "cat": 618,
    "catch</w>": 619,
    "af": 620,
    "after": 621,
    "afterno": 622,
    "afternoon</w>": 623,
    "even": 624,
    "evening</w>": 625,
    "there</w>": 626,
    "yo</w>": 627,
    "how": 628,
    "howd": 629,
    "howdy</w>": 630,
    "greet": 631,
    "greetin": 632,
    "greetings</w>": 633,
    "sup</w>": 634,
    "help</w>": 635,
    "com": 636,
    "comman": 637,
    "commands</w>": 638,
    "fe": 639,
    "featu": 640,
    "features</w>": 641,
    "abil": 642,
    "abili": 643,
    "abiliti": 644,
    "abilities</w>": 645,
    "cur": 646,
    "curren": 647,
    "current</w>": 648,
    "cont": 649,
    "content": 650,
    "contents</w>": 651,
    "relo": 652,
    "relocate</w>": 653,
    "transf": 654,
    "transfer</w>": 655,
    "these</w>": 656,
    "shi": 657,
    "shif": 658,
    "shift</w>": 659,
    "sil": 660,
    "silen": 661,
    "silence</w>": 662,
    "soun": 663,
    "sound</w>": 664,
    "unmute</w>": 665,
    "tog": 666,
    "toggle</w>": 667,
    "vs</w>": 668,
    "jet": 669,
    "jetbr": 670,
    "jetbra": 671,
    "jetbrain": 672,
    "jetbrains</w>": 673,
    "ema": 674,
    "emai": 675,
    "email</w>": 676,
    "calcu": 677,
    "calcula": 678,
    "calculator</w>": 679,
    "paint</w>": 680,
    "dis": 681,
    "disco": 682,
    "discor": 683,
    "discord</w>": 684,
    "mic": 685,
    "micro": 686,
    "microsof": 687,
    "microsoft</w>": 688,
    "powerp": 689,
    "powerpo": 690,
    "powerpoint</w>": 691,
    "sla": 692,
    "slac": 693,
    "slack</w>": 694,
    "fir": 695,
    "fire</w>": 696,
    "bring</w>": 697,
    "need</w>": 698,
    "go": 699,
    "going</w>": 700,
    "pull</w>": 701,
    "ru": 702,
    "run</w>": 703,
    "report.docx</w>": 704,
    "spreadsheet</w>": 705,
    "confi": 706,
    "config": 707,
    "config.": 708,
    "config.j": 709,
    "config.js": 710,
    "config.json</w>": 711,
    "recall</w>": 712,
    "sav": 713,
    "saved</w>": 714,
    "preferenc": 715,
    "preferences</w>": 716,
    "know</w>": 717,
    "alex": 718,
    "alex</w>": 719,
    "dar": 720,
    "dark</w>": 721,
    "preference</w>": 722,
    "prefer</w>": 723,
    "ligh": 724,
    "light</w>": 725,
    "theme</w>": 726,
    "keep</w>": 727,
    "powershell</w>": 728,
    "final</w>": 729,
    "reminder</w>": 730,
    "aler": 731,
    "alert</w>": 732,
    "brea": 733,
    "break</w>": 734,
    "hou": 735,
    "hour</w>": 736,
    "timer</w>": 737,
    "15</w>": 738,
    "sna": 739,
    "snap</w>": 740,
    "gra": 741,
    "grab</w>": 742,
    "mach": 743,
    "machin": 744,
    "machine</w>": 745,
    "hi": 746,
    "hib": 747,
    "hiber": 748,
    "hiberna": 749,
    "hibernate</w>": 750,
    "sus": 751,
    "suspen": 752,
    "suspend</w>": 753,
    "bus": 754,
    "busy</w>": 755,
    "ready</w>": 756,
    "anything</w>": 757,
    "work": 758,
    "working</w>": 759,
    "report.txt</w>": 760,
    "tl": 761,
    "tld": 762,
    "tldr</w>": 763,
    "read</w>": 764,
    "notes": 765,
    "notes.": 766,
    "notes.txt</w>": 767,
    "bri": 768,
    "brie": 769,
    "brief": 770,
    "briefly</w>": 771,
    "info": 772,
    "info</w>": 773,
    "cpu": 774,
    "cpu</w>": 775,
    "much</w>": 776,
    "ram</w>": 777,
    "using</w>": 778,
    "perfor": 779,
    "performan": 780,
    "performance</w>": 781,
    "sta": 782,
    "stats</w>": 783,
    "disk</w>": 784,
    "memor": 785,
    "memory</w>": 786,
    "proc": 787,
    "proce": 788,
    "proces": 789,
    "process": 790,
    "processes</w>": 791,
    "resou": 792,
    "resour": 793,
    "resource</w>": 794,
    "thank</w>": 795,
    "che": 796,
    "cheer": 797,
    "cheers</w>": 798,
    "ap": 799,
    "app": 800,
    "apprec": 801,
    "appreci": 802,
    "appreciate</w>": 803,
    "ni": 804,
    "nice</w>": 805,
    "bril": 806,
    "brilli": 807,
    "brillian": 808,
    "brilliant</w>": 809,
    "great</w>": 810,
    "job</w>": 811,
    "well</w>": 812,
    "exce": 813,
    "excel": 814,
    "excell": 815,
    "excellent</w>": 816,
    "lot</w>": 817,
    "many</w>": 818,
    "asd": 819,
    "asdf": 820,
    "asdfgh": 821,
    "asdfghj": 822,
    "asdfghjk": 823,
    "asdfghjkl</w>": 824,
    "happen</w>": 825,
    "xy": 826,
    "xyz": 827,
    "xyz</w>": 828,
    "abc</w>": 829,
    "id": 830,
    "idk</w>": 831,
    "man</w>": 832,
    "hu": 833,
    "huh</w>": 834,
    "decrease</w>": 835,
    "low": 836,
    "lower</w>": 837,
    "redu": 838,
    "reduce</w>": 839,
    "softer</w>": 840,
    "ple": 841,
    "please</w>": 842,
    "increase</w>": 843,
    "rai": 844,
    "raise</w>": 845,
    "boost</w>": 846,
    "tuto": 847,
    "tutori": 848,
    "tutorial": 849,
    "tutorials</w>": 850,
    "pytor": 851,
    "pytorch</w>": 852,
    "documenta": 853,
    "documentati": 854,
    "documentation</w>": 855,
    "we": 856,
    "web</w>": 857,
    "late": 858,
    "latest</w>": 859,
    "news</w>": 860,
    "transfor": 861,
    "transformer</w>": 862,
    "archi": 863,
    "archite": 864,
    "architec": 865,
    "architecture</w>": 866,
    "win": 867,
    "window": 868,
    "windows</w>": 869,
    "11</w>": 870,
    "tip": 871,
    "tips</w>": 872
  },
  "merges": [
    [
      "e",
      "</w>"
    ],
    [
      "t",
      "</w>"
    ],
    [
      "s",
      "</w>"
    ],
    [
      "n",
      "</w>"
    ],
    [
      "r",
      "</w>"
    ],
    [
      "t",
      "h"
    ],
    [
      "r",
      "e"
    ],
    [
      "i",
      "n"
    ],
    [
      "e",
      "r</w>"
    ],
    [
      "y",
      "</w>"
    ],
    [
      "o",
      "u"
    ],
    [
      "d",
      "</w>"
    ],
    [
      "a",
      "r"
    ],
    [
      "a",
      "t</w>"
    ],
    [
      "m",
      "e</w>"
    ],
    [
      "t",
      "o"
    ],
    [
      "d",
      "o"
    ],
    [
      "th",
      "e</w>"
    ],
    [
      "p",
      "e"
    ],
    [
      "c",
      "h"
    ],
    [
      "p",
      "</w>"
    ],
    [
      "l",
      "</w>"
    ],
    [
      "y",
      "ou"
    ],
    [
      "e",
      "s</w>"
    ],
    [
      "i",
      "l"
    ],
    [
      "f",
      "o"
    ],
    [
      "pe",
      "n</w>"
    ],
    [
      "you",
      "</w>"
    ],
    [
      "w",
      "h"
    ],
    [
      "o",
      "pen</w>"
    ],
    [
      "l",
      "o"
    ],
    [
      "f",
      "il"
    ],
    [
      "wh",
      "at</w>"
    ],
    [
      "g",
      "</w>"
    ],
    [
      "o",
      "w"
    ],
    [
      "i",
      "s</w>"
    ],
    [
      "s",
      "h"
    ],
    [
      "e",
      "n"
    ],
    [
      "d",
      "i"
    ],
    [
      "d",
      "er</w>"
    ],
    [
      "t",
      "u"
    ],
    [
      "ch",
      "</w>"
    ],
    [
      "in",
      "g</w>"
    ],
    [
      "t",
      "e"
    ],
    [
      "c",
      "o"
    ],
    [
      "l",
      "a"
    ],
    [
      "m",
      "y</w>"
    ],
    [
      "a",
      "</w>"
    ],
    [
      "k",
      "</w>"
    ],
    [
      "a",
      "l"
    ],
    [
      "t",
      "e</w>"
    ],
    [
      "r",
      "o"
    ],
    [
      "v",
      "e</w>"
    ],
    [
      "m",
      "a"
    ],
    [
      "fil",
      "es</w>"
    ],
    [
      "to",
      "</w>"
    ],
    [
      "ow",
      "</w>"
    ],
    [
      "d",
      "e"
    ],
    [
      "u",
      "p</w>"
    ],
    [
      "i",
      "n</w>"
    ],
    [
      "th",
      "at</w>"
    ],
    [
      "m",
      "o"
    ],
    [
      "fo",
      "r</w>"
    ],
    [
      "ar",
      "e</w>"
    ],
    [
      "u",
      "n"
    ],
    [
      "re",
      "a"
    ],
    [
      "u",
      "m"
    ],
    [
      "u",
      "t"
    ],
    [
      "en",
      "t"
    ],
    [
      "s",
      "t"
    ],
    [
      "d",
      "e</w>"
    ],
    [
      "e",
      "r"
    ],
    [
      "fo",
      "l"
    ],
    [
      "fol",
      "der</w>"
    ],
    [
      "k",
      "e</w>"
    ],
    [
      "m",
      "e"
    ],
    [
      "r",
      "i"
    ],
    [
      "s",
      "e"
    ],
    [
      "o",
      "l"
    ],
    [
      "n",
      "a"
    ],
    [
      "i",
      "</w>"
    ],
    [
      "s",
      "a"
    ],
    [
      "do",
      "</w>"
    ],
    [
      "a",
      "n"
    ],
    [
      "f",
      "</w>"
    ],
    [
      "s",
      "e</w>"
    ],
    [
      "do",
      "w"
    ],
    [
      "al",
      "l</w>"
    ],
    [
      "do",
      "c"
    ],
    [
      "o",
      "n</w>"
    ],
    [
      "f",
      "in"
    ],
    [
      "e",
      "x"
    ],
    [
      "i",
      "t</w>"
    ],
    [
      "m",
      "in"
    ],
    [
      "de",
      "s"
    ],
    [
      "des",
      "k"
    ],
    [
      "desk",
      "to"
    ],
    [
      "deskto",
      "p</w>"
    ],
    [
      "o",
      "o"
    ],
    [
      "v",
      "ol"
    ],
    [
      "vol",
      "u"
    ],
    [
      "volu",
      "me</w>"
    ],
    [
      "tu",
      "r"
    ],
    [
      "m",
      "</w>"
    ],
    [
      "ar",
      "t</w>"
    ],
    [
      "c",
      "a"
    ],
    [
      "e",
      "d</w>"
    ],
    [
      "ch",
      "ro"
    ],
    [
      "chro",
      "me</w>"
    ],
    [
      "fil",
      "e</w>"
    ],
    [
      "p",
      "d"
    ],
    [
      "fin",
      "d</w>"
    ],
    [
      "la",
      "un"
    ],
    [
      "laun",
      "ch</w>"
    ],
    [
      "i",
      "s"
    ],
    [
      "dow",
      "n</w>"
    ],
    [
      "doc",
      "um"
    ],
    [
      "o",
      "r"
    ],
    [
      "se",
      "ar"
    ],
    [
      "sear",
      "ch</w>"
    ],
    [
      "st",
      "art</w>"
    ],
    [
      "o",
      "</w>"
    ],
    [
      "n",
      "o"
    ],
    [
      "lo",
      "o"
    ],
    [
      "loo",
      "k</w>"
    ],
    [
      "a",
      "c"
    ],
    [
      "sh",
      "ow</w>"
    ],
    [
      "s",
      "c"
    ],
    [
      "sc",
      "re"
    ],
    [
      "l",
      "l</w>"
    ],
    [
      "th",
      "ing</w>"
    ],
    [
      "c",
      "</w>"
    ],
    [
      "e",
      "e"
    ],
    [
      "a",
      "l</w>"
    ],
    [
      "ri",
      "der</w>"
    ],
    [
      "co",
      "de</w>"
    ],
    [
      "pd",
      "f"
    ],
    [
      "pdf",
      "s</w>"
    ],
    [
      "docum",
      "ent"
    ],
    [
      "b",
      "ac"
    ],
    [
      "bac",
      "k"
    ],
    [
      "back",
      "up</w>"
    ],
    [
      "ma",
      "ke</w>"
    ],
    [
      "c",
      "rea"
    ],
    [
      "e",
      "c"
    ],
    [
      "re",
      "c"
    ],
    [
      "to",
      "r"
    ],
    [
      "mo",
      "ve</w>"
    ],
    [
      "g",
      "oo"
    ],
    [
      "tur",
      "n</w>"
    ],
    [
      "o",
      "f"
    ],
    [
      "min",
      "ut"
    ],
    [
      "minut",
      "es</w>"
    ],
    [
      "na",
      "me</w>"
    ],
    [
      "m",
      "u"
    ],
    [
      "v",
      "is"
    ],
    [
      "vis",
      "u"
    ],
    [
      "visu",
      "al</w>"
    ],
    [
      "s",
      "tu"
    ],
    [
      "stu",
      "di"
    ],
    [
      "studi",
      "o</w>"
    ],
    [
      "u",
      "t</w>"
    ],
    [
      "document",
      "s</w>"
    ],
    [
      "p",
      "ro"
    ],
    [
      "n",
      "e"
    ],
    [
      "i",
      "ve</w>"
    ],
    [
      "e",
      "l</w>"
    ],
    [
      "m",
      "p"
    ],
    [
      "t",
      "er</w>"
    ],
    [
      "t",
      "a"
    ],
    [
      "t",
      "i"
    ],
    [
      "c",
      "e</w>"
    ],
    [
      "b",
      "r"
    ],
    [
      "b",
      "</w>"
    ],
    [
      "re",
      "me"
    ],
    [
      "reme",
      "m"
    ],
    [
      "remem",
      "b"
    ],
    [
      "rememb",
      "er</w>"
    ],
    [
      "s",
      "um"
    ],
    [
      "sum",
      "m"
    ],
    [
      "summ",
      "ar"
    ],
    [
      "h",
      "ow</w>"
    ],
    [
      "you",
      "r</w>"
    ],
    [
      "l",
      "i"
    ],
    [
      "s",
      "ent"
    ],
    [
      "di",
      "d</w>"
    ],
    [
      "u",
      "s"
    ],
    [
      "ex",
      "p"
    ],
    [
      "q",
      "u"
    ],
    [
      "ou",
      "t"
    ],
    [
      "v",
      "s"
    ],
    [
      "vs",
      "code</w>"
    ],
    [
      "p",
      "y</w>"
    ],
    [
      "re",
      "p"
    ],
    [
      "rep",
      "or"
    ],
    [
      "e",
      "v"
    ],
    [
      "crea",
      "te</w>"
    ],
    [
      "pro",
      "j"
    ],
    [
      "proj",
      "ec"
    ],
    [
      "t",
      "s</w>"
    ],
    [
      "ne",
      "w"
    ],
    [
      "ar",
      "ch"
    ],
    [
      "rea",
      "d"
    ],
    [
      "lo",
      "g</w>"
    ],
    [
      "h",
      "e"
    ],
    [
      "of",
      "f</w>"
    ],
    [
      "to",
      "r</w>"
    ],
    [
      "p",
      "re"
    ],
    [
      "pre",
      "f"
    ],
    [
      "co",
      "mp"
    ],
    [
      "comp",
      "ut"
    ],
    [
      "comput",
      "er</w>"
    ],
    [
      "th",
      "an"
    ],
    [
      "en",
      "t</w>"
    ],
    [
      "o",
      "f</w>"
    ],
    [
      "ca",
      "n</w>"
    ],
    [
      "h",
      "a"
    ],
    [
      "c",
      "lo"
    ],
    [
      "clo",
      "se</w>"
    ],
    [
      "out",
      "look</w>"
    ],
    [
      "no",
      "te"
    ],
    [
      "p",
      "a"
    ],
    [
      "co",
      "py</w>"
    ],
    [
      "i",
      "ma"
    ],
    [
      "ima",
      "g"
    ],
    [
      "imag",
      "es</w>"
    ],
    [
      "ev",
      "er"
    ],
    [
      "y",
      "thing</w>"
    ],
    [
      "c",
      "al"
    ],
    [
      "new",
      "</w>"
    ],
    [
      "di",
      "rec"
    ],
    [
      "direc",
      "tor"
    ],
    [
      "director",
      "y</w>"
    ],
    [
      "w",
      "or"
    ],
    [
      "arch",
      "ive</w>"
    ],
    [
      "r",
      "a"
    ],
    [
      "f",
      "i"
    ],
    [
      "th",
      "is</w>"
    ],
    [
      "x",
      "t</w>"
    ],
    [
      "s",
      "p"
    ],
    [
      "ta",
      "ke</w>"
    ],
    [
      "n",
      "e</w>"
    ],
    [
      "n",
      "ow</w>"
    ],
    [
      "sent",
      "in"
    ],
    [
      "sentin",
      "el</w>"
    ],
    [
      "goo",
      "d</w>"
    ],
    [
      "n",
      "ing</w>"
    ],
    [
      "a",
      "b"
    ],
    [
      "mu",
      "te</w>"
    ],
    [
      "e",
      "di"
    ],
    [
      "edi",
      "tor</w>"
    ],
    [
      "i",
      "de</w>"
    ],
    [
      "p",
      "ow"
    ],
    [
      "b",
      "oo"
    ],
    [
      "sa",
      "ve</w>"
    ],
    [
      "p",
      "c</w>"
    ],
    [
      "0",
      "</w>"
    ],
    [
      "scre",
      "en"
    ],
    [
      "screen",
      "sh"
    ],
    [
      "screensh",
      "o"
    ],
    [
      "screensho",
      "t</w>"
    ],
    [
      "tur",
      "e</w>"
    ],
    [
      "scre",
      "e"
    ],
    [
      "scree",
      "n</w>"
    ],
    [
      "summar",
      "i"
    ],
    [
      "summari",
      "z"
    ],
    [
      "summariz",
      "e</w>"
    ],
    [
      "u",
      "sa"
    ],
    [
      "usa",
      "g"
    ],
    [
      "usag",
      "e</w>"
    ],
    [
      "than",
      "k"
    ],
    [
      "thank",
      "s</w>"
    ],
    [
      "h",
      "</w>"
    ],
    [
      "do",
      "ing</w>"
    ],
    [
      "te",
      "ll</w>"
    ],
    [
      "sa",
      "y</w>"
    ],
    [
      "l",
      "ou"
    ],
    [
      "re",
      "d</w>"
    ],
    [
      "ha",
      "p"
    ],
    [
      "pe",
      "n"
    ],
    [
      "qu",
      "it</w>"
    ],
    [
      "note",
      "pa"
    ],
    [
      "notepa",
      "d</w>"
    ],
    [
      "sh",
      "ut</w>"
    ],
    [
      "exp",
      "lo"
    ],
    [
      "explo",
      "re"
    ],
    [
      "explore",
      "r</w>"
    ],
    [
      "repor",
      "t</w>"
    ],
    [
      "ever",
      "ything</w>"
    ],
    [
      "cal",
      "l"
    ],
    [
      "call",
      "ed</w>"
    ],
    [
      "te",
      "m"
    ],
    [
      "tem",
      "p</w>"
    ],
    [
      "d",
      "a"
    ],
    [
      "p",
      "ut</w>"
    ],
    [
      "l",
      "e"
    ],
    [
      "g",
      "s</w>"
    ],
    [
      "pd",
      "f</w>"
    ],
    [
      "doc",
      "x"
    ],
    [
      "docx",
      "</w>"
    ],
    [
      "f",
      "ro"
    ],
    [
      "fro",
      "m</w>"
    ],
    [
      "ex",
      "c"
    ],
    [
      "p",
      "y"
    ],
    [
      "la",
      "ter</w>"
    ],
    [
      "a",
      "m</w>"
    ],
    [
      "he",
      "l"
    ],
    [
      "mo",
      "r"
    ],
    [
      "ma",
      "n"
    ],
    [
      "d",
      "s</w>"
    ],
    [
      "a",
      "tu"
    ],
    [
      "re",
      "s</w>"
    ],
    [
      "l",
      "is"
    ],
    [
      "lis",
      "t</w>"
    ],
    [
      "re",
      "n"
    ],
    [
      "i",
      "c"
    ],
    [
      "projec",
      "t</w>"
    ],
    [
      "g",
      "l"
    ],
    [
      "gl",
      "e</w>"
    ],
    [
      "g",
      "i"
    ],
    [
      "gi",
      "th"
    ],
    [
      "gith",
      "u"
    ],
    [
      "githu",
      "b</w>"
    ],
    [
      "s",
      "k</w>"
    ],
    [
      "br",
      "ow"
    ],
    [
      "brow",
      "s"
    ],
    [
      "brows",
      "er</w>"
    ],
    [
      "boo",
      "t</w>"
    ],
    [
      "mo",
      "de</w>"
    ],
    [
      "ee",
      "p</w>"
    ],
    [
      "e",
      "ll</w>"
    ],
    [
      "re",
      "name</w>"
    ],
    [
      "re",
      "start</w>"
    ],
    [
      "5",
      "</w>"
    ],
    [
      "re",
      "min"
    ],
    [
      "ca",
      "p"
    ],
    [
      "cap",
      "ture</w>"
    ],
    [
      "sh",
      "ut"
    ],
    [
      "shut",
      "down</w>"
    ],
    [
      "pe",
      "r"
    ],
    [
      "b",
      "la"
    ],
    [
      "bla",
      "h</w>"
    ],
    [
      "?",
      "</w>"
    ],
    [
      "a",
      "n</w>"
    ],
    [
      "j",
      "o"
    ],
    [
      "s",
      "o"
    ],
    [
      "so",
      "me"
    ],
    [
      "some",
      "thing</w>"
    ],
    [
      "f",
      "a"
    ],
    [
      "fa",
      "v"
    ],
    [
      "fav",
      "ou"
    ],
    [
      "favou",
      "ri"
    ],
    [
      "favouri",
      "te</w>"
    ],
    [
      "g",
      "e"
    ],
    [
      "ge",
      "t</w>"
    ],
    [
      "j",
      "us"
    ],
    [
      "jus",
      "t</w>"
    ],
    [
      "exp",
      "la"
    ],
    [
      "expla",
      "in</w>"
    ],
    [
      "do",
      "es</w>"
    ],
    [
      "an",
      "d</w>"
    ],
    [
      "hap",
      "pen"
    ],
    [
      "happen",
      "ed</w>"
    ],
    [
      "te",
      "r"
    ],
    [
      "a",
      "te</w>"
    ],
    [
      "ex",
      "it</w>"
    ],
    [
      "d",
      "u"
    ],
    [
      "ca",
      "te</w>"
    ],
    [
      "in",
      "to</w>"
    ],
    [
      "projec",
      "ts</w>"
    ],
    [
      "na",
      "me"
    ],
    [
      "name",
      "d</w>"
    ],
    [
      "t",
      "a</w>"
    ],
    [
      "a",
      "s"
    ],
    [
      "er",
      "e</w>"
    ],
    [
      "de",
      "le"
    ],
    [
      "dele",
      "te</w>"
    ],
    [
      "ol",
      "d</w>"
    ],
    [
      "lo",
      "gs</w>"
    ],
    [
      "a",
      "se</w>"
    ],
    [
      "mo",
      "di"
    ],
    [
      "modi",
      "fi"
    ],
    [
      "modifi",
      "ed</w>"
    ],
    [
      "to",
      "da"
    ],
    [
      "toda",
      "y</w>"
    ],
    [
      "wor",
      "d</w>"
    ],
    [
      "te",
      "xt</w>"
    ],
    [
      "exc",
      "el</w>"
    ],
    [
      "sp",
      "read"
    ],
    [
      "spread",
      "sh"
    ],
    [
      "spreadsh",
      "ee"
    ],
    [
      "py",
      "th"
    ],
    [
      "pyth",
      "on</w>"
    ],
    [
      "l",
      "y</w>"
    ],
    [
      "b",
      "y"
    ],
    [
      "by",
      "e</w>"
    ],
    [
      "do",
      "ne</w>"
    ],
    [
      "o",
      "ne</w>"
    ],
    [
      "hel",
      "lo"
    ],
    [
      "hello",
      "</w>"
    ],
    [
      "h",
      "i</w>"
    ],
    [
      "he",
      "y</w>"
    ],
    [
      "mor",
      "ning</w>"
    ],
    [
      "g",
      "re"
    ],
    [
      "e",
      "t"
    ],
    [
      "u",
      "se</w>"
    ],
    [
      "dow",
      "n"
    ],
    [
      "down",
      "lo"
    ],
    [
      "downlo",
      "a"
    ],
    [
      "downloa",
      "ds</w>"
    ],
    [
      "c",
      "u"
    ],
    [
      "co",
      "n"
    ],
    [
      "p",
      "ic"
    ],
    [
      "pic",
      "tu"
    ],
    [
      "pictu",
      "res</w>"
    ],
    [
      "t",
      "r"
    ],
    [
      "tr",
      "an"
    ],
    [
      "tran",
      "s"
    ],
    [
      "th",
      "e"
    ],
    [
      "s",
      "ou"
    ],
    [
      "goo",
      "gle</w>"
    ],
    [
      "ta",
      "sk</w>"
    ],
    [
      "ma",
      "na"
    ],
    [
      "mana",
      "g"
    ],
    [
      "manag",
      "er</w>"
    ],
    [
      "in",
      "t</w>"
    ],
    [
      "sp",
      "o"
    ],
    [
      "spo",
      "ti"
    ],
    [
      "spoti",
      "f"
    ],
    [
      "spotif",
      "y</w>"
    ],
    [
      "te",
      "a"
    ],
    [
      "tea",
      "m"
    ],
    [
      "team",
      "s</w>"
    ],
    [
      "s",
      "of"
    ],
    [
      "pow",
      "er"
    ],
    [
      "p",
      "u"
    ],
    [
      "read",
      "me</w>"
    ],
    [
      "repor",
      "t"
    ],
    [
      "report",
      "."
    ],
    [
      "a",
      "s</w>"
    ],
    [
      "ab",
      "ou"
    ],
    [
      "abou",
      "t</w>"
    ],
    [
      "pref",
      "e"
    ],
    [
      "prefe",
      "ren"
    ],
    [
      "pref",
      "er"
    ],
    [
      "prefer",
      "red</w>"
    ],
    [
      "d",
      "ri"
    ],
    [
      "dri",
      "ve</w>"
    ],
    [
      "s",
      "tor"
    ],
    [
      "stor",
      "e</w>"
    ],
    [
      "no",
      "te</w>"
    ],
    [
      "g",
      "h"
    ],
    [
      "sh",
      "ell</w>"
    ],
    [
      "re",
      "boot</w>"
    ],
    [
      "remin",
      "d</w>"
    ],
    [
      "1",
      "0</w>"
    ],
    [
      "se",
      "t</w>"
    ],
    [
      "3",
      "0</w>"
    ],
    [
      "1",
      "</w>"
    ],
    [
      "m",
      "er</w>"
    ],
    [
      "pow",
      "er</w>"
    ],
    [
      "s",
      "l"
    ],
    [
      "sl",
      "eep</w>"
    ],
    [
      "st",
      "atu"
    ],
    [
      "statu",
      "s</w>"
    ],
    [
      "r",
      "un"
    ],
    [
      "run",
      "ning</w>"
    ],
    [
      "g",
      "ive</w>"
    ],
    [
      "summar",
      "y</w>"
    ],
    [
      "t",
      "xt</w>"
    ],
    [
      "docum",
      "ent</w>"
    ],
    [
      "s",
      "y"
    ],
    [
      "sy",
      "s"
    ],
    [
      "sys",
      "te"
    ],
    [
      "syste",
      "m</w>"
    ],
    [
      "fo",
      "r"
    ],
    [
      "per",
      "f"
    ],
    [
      "perf",
      "ec"
    ],
    [
      "perfec",
      "t</w>"
    ],
    [
      "crea",
      "se</w>"
    ],
    [
      "qu",
      "i"
    ],
    [
      "qui",
      "e"
    ],
    [
      "quie",
      "ter</w>"
    ],
    [
      "lou",
      "der</w>"
    ],
    [
      "s",
      "t</w>"
    ],
    [
      "wh",
      "o</w>"
    ],
    [
      "a",
      "i</w>"
    ],
    [
      "jo",
      "ke</w>"
    ],
    [
      "f",
      "un"
    ],
    [
      "fun",
      "n"
    ],
    [
      "funn",
      "y</w>"
    ],
    [
      "th",
      "in"
    ],
    [
      "thin",
      "k</w>"
    ],
    [
      "li",
      "ke</w>"
    ],
    [
      "mu",
      "s"
    ],
    [
      "mus",
      "i"
    ],
    [
      "musi",
      "c</w>"
    ],
    [
      "sent",
      "i"
    ],
    [
      "senti",
      "ent</w>"
    ],
    [
      "t",
      "al"
    ],
    [
      "tal",
      "k</w>"
    ],
    [
      "me",
      "an"
    ],
    [
      "mean",
      "ing</w>"
    ],
    [
      "li",
      "f"
    ],
    [
      "lif",
      "e</w>"
    ],
    [
      "d",
      "rea"
    ],
    [
      "drea",
      "m</w>"
    ],
    [
      "s",
      "m"
    ],
    [
      "sm",
      "art</w>"
    ],
    [
      "f",
      "ee"
    ],
    [
      "fee",
      "l</w>"
    ],
    [
      "in",
      "te"
    ],
    [
      "inte",
      "re"
    ],
    [
      "intere",
      "st"
    ],
    [
      "interest",
      "ing</w>"
    ],
    [
      "co",
      "lou"
    ],
    [
      "colou",
      "r</w>"
    ],
    [
      "b",
      "o"
    ],
    [
      "bo",
      "red</w>"
    ],
    [
      "me",
      "an</w>"
    ],
    [
      "re",
      "pe"
    ],
    [
      "repe",
      "at</w>"
    ],
    [
      "no",
      "t</w>"
    ],
    [
      "un",
      "de"
    ],
    [
      "unde",
      "r"
    ],
    [
      "under",
      "st"
    ],
    [
      "underst",
      "and</w>"
    ],
    [
      "a",
      "g"
    ],
    [
      "ag",
      "a"
    ],
    [
      "aga",
      "in</w>"
    ],
    [
      "wh",
      "y</w>"
    ],
    [
      "k",
      "il"
    ],
    [
      "kil",
      "l</w>"
    ],
    [
      "ter",
      "min"
    ],
    [
      "termin",
      "ate</w>"
    ],
    [
      "du",
      "p"
    ],
    [
      "dup",
      "li"
    ],
    [
      "dupli",
      "cate</w>"
    ],
    [
      "wor",
      "k</w>"
    ],
    [
      "de",
      "mo"
    ],
    [
      "demo",
      "</w>"
    ],
    [
      "m",
      "k"
    ],
    [
      "mk",
      "di"
    ],
    [
      "mkdi",
      "r</w>"
    ],
    [
      "da",
      "ta</w>"
    ],
    [
      "out",
      "put</w>"
    ],
    [
      "as",
      "se"
    ],
    [
      "asse",
      "ts</w>"
    ],
    [
      "h",
      "ere</w>"
    ],
    [
      "re",
      "move</w>"
    ],
    [
      "t",
      "ra"
    ],
    [
      "tra",
      "sh"
    ],
    [
      "trash",
      "</w>"
    ],
    [
      "er",
      "ase</w>"
    ],
    [
      "ever",
      "y</w>"
    ],
    [
      "w",
      "ee"
    ],
    [
      "wee",
      "k</w>"
    ],
    [
      "p",
      "n"
    ],
    [
      "pn",
      "g</w>"
    ],
    [
      "spreadshee",
      "ts</w>"
    ],
    [
      "mp",
      "4"
    ],
    [
      "mp4",
      "</w>"
    ],
    [
      "v",
      "i"
    ],
    [
      "vi",
      "de"
    ],
    [
      "vide",
      "o"
    ],
    [
      "video",
      "s</w>"
    ],
    [
      "z",
      "i"
    ],
    [
      "zi",
      "p</w>"
    ],
    [
      "rec",
      "ent"
    ],
    [
      "recent",
      "ly</w>"
    ],
    [
      "goo",
      "d"
    ],
    [
      "good",
      "bye</w>"
    ],
    [
      "se",
      "e</w>"
    ],
    [
      "c",
      "are</w>"
    ],
    [
      "ha",
      "ve</w>"
    ],
    [
      "pe",
      "ac"
    ],
    [
      "peac",
      "e</w>"
    ],
    [
      "fin",
      "i"
    ],
    [
      "fini",
      "sh"
    ],
    [
      "finish",
      "ed</w>"
    ],
    [
      "ca",
      "t"
    ],
    [
      "cat",
      "ch</w>"
    ],
    [
      "a",
      "f"
    ],
    [
      "af",
      "ter"
    ],
    [
      "after",
      "no"
    ],
    [
      "afterno",
      "on</w>"
    ],
    [
      "ev",
      "en"
    ],
    [
      "even",
      "ing</w>"
    ],
    [
      "th",
      "ere</w>"
    ],
    [
      "y",
      "o</w>"
    ],
    [
      "h",
      "ow"
    ],
    [
      "how",
      "d"
    ],
    [
      "howd",
      "y</w>"
    ],
    [
      "gre",
      "et"
    ],
    [
      "greet",
      "in"
    ],
    [
      "greetin",
      "gs</w>"
    ],
    [
      "s",
      "up</w>"
    ],
    [
      "hel",
      "p</w>"
    ],
    [
      "co",
      "m"
    ],
    [
      "com",
      "man"
    ],
    [
      "comman",
      "ds</w>"
    ],
    [
      "f",
      "e"
    ],
    [
      "fe",
      "atu"
    ],
    [
      "featu",
      "res</w>"
    ],
    [
      "ab",
      "il"
    ],
    [
      "abil",
      "i"
    ],
    [
      "abili",
      "ti"
    ],
    [
      "abiliti",
      "es</w>"
    ],
    [
      "cu",
      "r"
    ],
    [
      "cur",
      "ren"
    ],
    [
      "curren",
      "t</w>"
    ],
    [
      "con",
      "t"
    ],
    [
      "cont",
      "ent"
    ],
    [
      "content",
      "s</w>"
    ],
    [
      "re",
      "lo"
    ],
    [
      "relo",
      "cate</w>"
    ],
    [
      "trans",
      "f"
    ],
    [
      "transf",
      "er</w>"
    ],
    [
      "the",
      "se</w>"
    ],
    [
      "sh",
      "i"
    ],
    [
      "shi",
      "f"
    ],
    [
      "shif",
      "t</w>"
    ],
    [
      "s",
      "il"
    ],
    [
      "sil",
      "en"
    ],
    [
      "silen",
      "ce</w>"
    ],
    [
      "sou",
      "n"
    ],
    [
      "soun",
      "d</w>"
    ],
    [
      "un",
      "mute</w>"
    ],
    [
      "to",
      "g"
    ],
    [
      "tog",
      "gle</w>"
    ],
    [
      "v",
      "s</w>"
    ],
    [
      "j",
      "et"
    ],
    [
      "jet",
      "br"
    ],
    [
      "jetbr",
      "a"
    ],
    [
      "jetbra",
      "in"
    ],
    [
      "jetbrain",
      "s</w>"
    ],
    [
      "e",
      "ma"
    ],
    [
      "ema",
      "i"
    ],
    [
      "emai",
      "l</w>"
    ],
    [
      "cal",
      "cu"
    ],
    [
      "calcu",
      "la"
    ],
    [
      "calcula",
      "tor</w>"
    ],
    [
      "pa",
      "int</w>"
    ],
    [
      "di",
      "s"
    ],
    [
      "dis",
      "co"
    ],
    [
      "disco",
      "r"
    ],
    [
      "discor",
      "d</w>"
    ],
    [
      "m",
      "ic"
    ],
    [
      "mic",
      "ro"
    ],
    [
      "micro",
      "sof"
    ],
    [
      "microsof",
      "t</w>"
    ],
    [
      "power",
      "p"
    ],
    [
      "powerp",
      "o"
    ],
    [
      "powerpo",
      "int</w>"
    ],
    [
      "s",
      "la"
    ],
    [
      "sla",
      "c"
    ],
    [
      "slac",
      "k</w>"
    ],
    [
      "fi",
      "r"
    ],
    [
      "fir",
      "e</w>"
    ],
    [
      "br",
      "ing</w>"
    ],
    [
      "ne",
      "ed</w>"
    ],
    [
      "g",
      "o"
    ],
    [
      "go",
      "ing</w>"
    ],
    [
      "pu",
      "ll</w>"
    ],
    [
      "r",
      "u"
    ],
    [
      "ru",
      "n</w>"
    ],
    [
      "report.",
      "docx</w>"
    ],
    [
      "spreadshee",
      "t</w>"
    ],
    [
      "con",
      "fi"
    ],
    [
      "confi",
      "g"
    ],
    [
      "config",
      "."
    ],
    [
      "config.",
      "j"
    ],
    [
      "config.j",
      "s"
    ],
    [
      "config.js",
      "on</w>"
    ],
    [
      "rec",
      "all</w>"
    ],
    [
      "sa",
      "v"
    ],
    [
      "sav",
      "ed</w>"
    ],
    [
      "preferen",
      "c"
    ],
    [
      "preferenc",
      "es</w>"
    ],
    [
      "k",
      "now</w>"
    ],
    [
      "al",
      "ex"
    ],
    [
      "alex",
      "</w>"
    ],
    [
      "d",
      "ar"
    ],
    [
      "dar",
      "k</w>"
    ],
    [
      "preferen",
      "ce</w>"
    ],
    [
      "pref",
      "er</w>"
    ],
    [
      "li",
      "gh"
    ],
    [
      "ligh",
      "t</w>"
    ],
    [
      "the",
      "me</w>"
    ],
    [
      "k",
      "eep</w>"
    ],
    [
      "power",
      "shell</w>"
    ],
    [
      "fin",
      "al</w>"
    ],
    [
      "remin",
      "der</w>"
    ],
    [
      "al",
      "er"
    ],
    [
      "aler",
      "t</w>"
    ],
    [
      "b",
      "rea"
    ],
    [
      "brea",
      "k</w>"
    ],
    [
      "h",
      "ou"
    ],
    [
      "hou",
      "r</w>"
    ],
    [
      "ti",
      "mer</w>"
    ],
    [
      "1",
      "5</w>"
    ],
    [
      "s",
      "na"
    ],
    [
      "sna",
      "p</w>"
    ],
    [
      "g",
      "ra"
    ],
    [
      "gra",
      "b</w>"
    ],
    [
      "ma",
      "ch"
    ],
    [
      "mach",
      "in"
    ],
    [
      "machin",
      "e</w>"
    ],
    [
      "h",
      "i"
    ],
    [
      "hi",
      "b"
    ],
    [
      "hib",
      "er"
    ],
    [
      "hiber",
      "na"
    ],
    [
      "hiberna",
      "te</w>"
    ],
    [
      "s",
      "us"
    ],
    [
      "sus",
      "pen"
    ],
    [
      "suspen",
      "d</w>"
    ],
    [
      "b",
      "us"
    ],
    [
      "bus",
      "y</w>"
    ],
    [
      "read",
      "y</w>"
    ],
    [
      "an",
      "ything</w>"
    ],
    [
      "wor",
      "k"
    ],
    [
      "work",
      "ing</w>"
    ],
    [
      "report.",
      "txt</w>"
    ],
    [
      "t",
      "l"
    ],
    [
      "tl",
      "d"
    ],
    [
      "tld",
      "r</w>"
    ],
    [
      "rea",
      "d</w>"
    ],
    [
      "note",
      "s"
    ],
    [
      "notes",
      "."
    ],
    [
      "notes.",
      "txt</w>"
    ],
    [
      "b",
      "ri"
    ],
    [
      "bri",
      "e"
    ],
    [
      "brie",
      "f"
    ],
    [
      "brief",
      "ly</w>"
    ],
    [
      "in",
      "fo"
    ],
    [
      "info",
      "</w>"
    ],
    [
      "c",
      "pu"
    ],
    [
      "cpu",
      "</w>"
    ],
    [
      "mu",
      "ch</w>"
    ],
    [
      "ra",
      "m</w>"
    ],
    [
      "us",
      "ing</w>"
    ],
    [
      "per",
      "for"
    ],
    [
      "perfor",
      "man"
    ],
    [
      "performan",
      "ce</w>"
    ],
    [
      "st",
      "a"
    ],
    [
      "sta",
      "ts</w>"
    ],
    [
      "di",
      "sk</w>"
    ],
    [
      "me",
      "mor"
    ],
    [
      "memor",
      "y</w>"
    ],
    [
      "pro",
      "c"
    ],
    [
      "proc",
      "e"
    ],
    [
      "proce",
      "s"
    ],
    [
      "proces",
      "s"
    ],
    [
      "process",
      "es</w>"
    ],
    [
      "re",
      "sou"
    ],
    [
      "resou",
      "r"
    ],
    [
      "resour",
      "ce</w>"
    ],
    [
      "than",
      "k</w>"
    ],
    [
      "ch",
      "e"
    ],
    [
      "che",
      "er"
    ],
    [
      "cheer",
      "s</w>"
    ],
    [
      "a",
      "p"
    ],
    [
      "ap",
      "p"
    ],
    [
      "app",
      "rec"
    ],
    [
      "apprec",
      "i"
    ],
    [
      "appreci",
      "ate</w>"
    ],
    [
      "n",
      "i"
    ],
    [
      "ni",
      "ce</w>"
    ],
    [
      "br",
      "il"
    ],
    [
      "bril",
      "li"
    ],
    [
      "brilli",
      "an"
    ],
    [
      "brillian",
      "t</w>"
    ],
    [
      "gre",
      "at</w>"
    ],
    [
      "jo",
      "b</w>"
    ],
    [
      "w",
      "ell</w>"
    ],
    [
      "exc",
      "e"
    ],
    [
      "exce",
      "l"
    ],
    [
      "excel",
      "l"
    ],
    [
      "excell",
      "ent</w>"
    ],
    [
      "lo",
      "t</w>"
    ],
    [
      "man",
      "y</w>"
    ],
    [
      "as",
      "d"
    ],
    [
      "asd",
      "f"
    ],
    [
      "asdf",
      "gh"
    ],
    [
      "asdfgh",
      "j"
    ],
    [
      "asdfghj",
      "k"
    ],
    [
      "asdfghjk",
      "l</w>"
    ],
    [
      "hap",
      "pen</w>"
    ],
    [
      "x",
      "y"
    ],
    [
      "xy",
      "z"
    ],
    [
      "xyz",
      "</w>"
    ],
    [
      "ab",
      "c</w>"
    ],
    [
      "i",
      "d"
    ],
    [
      "id",
      "k</w>"
    ],
    [
      "ma",
      "n</w>"
    ],
    [
      "h",
      "u"
    ],
    [
      "hu",
      "h</w>"
    ],
    [
      "de",
      "crease</w>"
    ],
    [
      "lo",
      "w"
    ],
    [
      "low",
      "er</w>"
    ],
    [
      "re",
      "du"
    ],
    [
      "redu",
      "ce</w>"
    ],
    [
      "sof",
      "ter</w>"
    ],
    [
      "p",
      "le"
    ],
    [
      "ple",
      "ase</w>"
    ],
    [
      "in",
      "crease</w>"
    ],
    [
      "ra",
      "i"
    ],
    [
      "rai",
      "se</w>"
    ],
    [
      "boo",
      "st</w>"
    ],
    [
      "tu",
      "to"
    ],
    [
      "tuto",
      "ri"
    ],
    [
      "tutori",
      "al"
    ],
    [
      "tutorial",
      "s</w>"
    ],
    [
      "py",
      "tor"
    ],
    [
      "pytor",
      "ch</w>"
    ],
    [
      "document",
      "a"
    ],
    [
      "documenta",
      "ti"
    ],
    [
      "documentati",
      "on</w>"
    ],
    [
      "w",
      "e"
    ],
    [
      "we",
      "b</w>"
    ],
    [
      "la",
      "te"
    ],
    [
      "late",
      "st</w>"
    ],
    [
      "new",
      "s</w>"
    ],
    [
      "trans",
      "for"
    ],
    [
      "transfor",
      "mer</w>"
    ],
    [
      "arch",
      "i"
    ],
    [
      "archi",
      "te"
    ],
    [
      "archite",
      "c"
    ],
    [
      "architec",
      "ture</w>"
    ],
    [
      "w",
      "in"
    ],
    [
      "win",
      "dow"
    ],
    [
      "window",
      "s</w>"
    ],
    [
      "1",
      "1</w>"
    ],
    [
      "ti",
      "p"
    ],
    [
      "tip",
      "s</w>"
    ]
  ],
  "max_seq_len": 128
}